#pragma once
#include <stdint.h>

alignas(16) const unsigned char mnist_cnn_int8_model[] = {
  0x1c, 0x00, 0x00, 0x00, 0x54, 0x46, 0x4c, 0x33, 0x14, 0x00, 0x20, 0x00,
  0x1c, 0x00, 0x18, 0x00, 0x14, 0x00, 0x10, 0x00, 0x0c, 0x00, 0x00, 0x00,
  0x08, 0x00, 0x04, 0x00, 0x14, 0x00, 0x00, 0x00, 0x1c, 0x00, 0x00, 0x00,
  0x98, 0x00, 0x00, 0x00, 0x18, 0x01, 0x00, 0x00, 0x68, 0x08, 0x00, 0x00,
  0x78, 0x08, 0x00, 0x00, 0x04, 0x14, 0x00, 0x00, 0x03, 0x00, 0x00, 0x00,
  0x01, 0x00, 0x00, 0x00, 0x10, 0x00, 0x00, 0x00, 0x00, 0x00, 0x0a, 0x00,
  0x10, 0x00, 0x0c, 0x00, 0x08, 0x00, 0x04, 0x00, 0x0a, 0x00, 0x00, 0x00,
  0x0c, 0x00, 0x00, 0x00, 0x1c, 0x00, 0x00, 0x00, 0x3c, 0x00, 0x00, 0x00,
  0x0f, 0x00, 0x00, 0x00, 0x73, 0x65, 0x72, 0x76, 0x69, 0x6e, 0x67, 0x5f,
  0x64, 0x65, 0x66, 0x61, 0x75, 0x6c, 0x74, 0x00, 0x01, 0x00, 0x00, 0x00,
  0x04, 0x00, 0x00, 0x00, 0x68, 0xff, 0xff, 0xff, 0x0c, 0x00, 0x00, 0x00,
  0x04, 0x00, 0x00, 0x00, 0x08, 0x00, 0x00, 0x00, 0x6f, 0x75, 0x74, 0x70,
  0x75, 0x74, 0x5f, 0x30, 0x00, 0x00, 0x00, 0x00, 0x01, 0x00, 0x00, 0x00,
  0x04, 0x00, 0x00, 0x00, 0x7a, 0xf7, 0xff, 0xff, 0x04, 0x00, 0x00, 0x00,
  0x0c, 0x00, 0x00, 0x00, 0x6b, 0x65, 0x72, 0x61, 0x73, 0x5f, 0x74, 0x65,
  0x6e, 0x73, 0x6f, 0x72, 0x00, 0x00, 0x00, 0x00, 0x03, 0x00, 0x00, 0x00,
  0x5c, 0x00, 0x00, 0x00, 0x2c, 0x00, 0x00, 0x00, 0x04, 0x00, 0x00, 0x00,
  0xb8, 0xff, 0xff, 0xff, 0x10, 0x00, 0x00, 0x00, 0x04, 0x00, 0x00, 0x00,
  0x13, 0x00, 0x00, 0x00, 0x43, 0x4f, 0x4e, 0x56, 0x45, 0x52, 0x53, 0x49,
  0x4f, 0x4e, 0x5f, 0x4d, 0x45, 0x54, 0x41, 0x44, 0x41, 0x54, 0x41, 0x00,
  0xdc, 0xff, 0xff, 0xff, 0x0f, 0x00, 0x00, 0x00, 0x04, 0x00, 0x00, 0x00,
  0x13, 0x00, 0x00, 0x00, 0x6d, 0x69, 0x6e, 0x5f, 0x72, 0x75, 0x6e, 0x74,
  0x69, 0x6d, 0x65, 0x5f, 0x76, 0x65, 0x72, 0x73, 0x69, 0x6f, 0x6e, 0x00,
  0x08, 0x00, 0x0c, 0x00, 0x08, 0x00, 0x04, 0x00, 0x08, 0x00, 0x00, 0x00,
  0x0e, 0x00, 0x00, 0x00, 0x04, 0x00, 0x00, 0x00, 0x13, 0x00, 0x00, 0x00,
  0x6d, 0x69, 0x6e, 0x5f, 0x72, 0x75, 0x6e, 0x74, 0x69, 0x6d, 0x65, 0x5f,
  0x76, 0x65, 0x72, 0x73, 0x69, 0x6f, 0x6e, 0x00, 0x11, 0x00, 0x00, 0x00,
  0x4c, 0x07, 0x00, 0x00, 0x44, 0x07, 0x00, 0x00, 0x2c, 0x07, 0x00, 0x00,
  0xf4, 0x06, 0x00, 0x00, 0x44, 0x06, 0x00, 0x00, 0xf4, 0x05, 0x00, 0x00,
  0x64, 0x01, 0x00, 0x00, 0x34, 0x01, 0x00, 0x00, 0xdc, 0x00, 0x00, 0x00,
  0xd4, 0x00, 0x00, 0x00, 0xcc, 0x00, 0x00, 0x00, 0xc4, 0x00, 0x00, 0x00,
  0xbc, 0x00, 0x00, 0x00, 0xb4, 0x00, 0x00, 0x00, 0x94, 0x00, 0x00, 0x00,
  0x74, 0x00, 0x00, 0x00, 0x04, 0x00, 0x00, 0x00, 0x62, 0xf8, 0xff, 0xff,
  0x04, 0x00, 0x00, 0x00, 0x60, 0x00, 0x00, 0x00, 0x0c, 0x00, 0x00, 0x00,
  0x08, 0x00, 0x0e, 0x00, 0x08, 0x00, 0x04, 0x00, 0x08, 0x00, 0x00, 0x00,
  0x10, 0x00, 0x00, 0x00, 0x28, 0x00, 0x00, 0x00, 0x00, 0x00, 0x06, 0x00,
  0x08, 0x00, 0x04, 0x00, 0x06, 0x00, 0x00, 0x00, 0x04, 0x00, 0x00, 0x00,
  0x01, 0x00, 0x00, 0x00, 0xeb, 0x03, 0x00, 0x00, 0x0c, 0x00, 0x18, 0x00,
  0x14, 0x00, 0x10, 0x00, 0x0c, 0x00, 0x04, 0x00, 0x0c, 0x00, 0x00, 0x00,
  0xbd, 0x5d, 0xeb, 0x8d, 0x91, 0xba, 0xc2, 0x45, 0x02, 0x00, 0x00, 0x00,
  0x02, 0x00, 0x00, 0x00, 0x04, 0x00, 0x00, 0x00, 0x06, 0x00, 0x00, 0x00,
  0x32, 0x2e, 0x31, 0x39, 0x2e, 0x30, 0x00, 0x00, 0xce, 0xf8, 0xff, 0xff,
  0x04, 0x00, 0x00, 0x00, 0x10, 0x00, 0x00, 0x00, 0x00, 0x00, 0x00, 0x00,
  0x00, 0x00, 0x00, 0x00, 0x00, 0x00, 0x00, 0x00, 0x00, 0x00, 0x00, 0x00,
  0xea, 0xf8, 0xff, 0xff, 0x04, 0x00, 0x00, 0x00, 0x10, 0x00, 0x00, 0x00,
  0x31, 0x2e, 0x31, 0x34, 0x2e, 0x30, 0x00, 0x00, 0x00, 0x00, 0x00, 0x00,
  0x00, 0x00, 0x00, 0x00, 0xc8, 0xee, 0xff, 0xff, 0xcc, 0xee, 0xff, 0xff,
  0xd0, 0xee, 0xff, 0xff, 0xd4, 0xee, 0xff, 0xff, 0xd8, 0xee, 0xff, 0xff,
  0x1a, 0xf9, 0xff, 0xff, 0x04, 0x00, 0x00, 0x00, 0x48, 0x00, 0x00, 0x00,
  0x7f, 0x72, 0x69, 0x56, 0x59, 0x38, 0x5e, 0x3d, 0x50, 0x1b, 0x5e, 0x6c,
  0x03, 0x19, 0x15, 0x9a, 0x81, 0xc1, 0x34, 0xf7, 0x08, 0x2a, 0x22, 0x3c,
  0x49, 0x4f, 0x7f, 0x61, 0x4a, 0x6a, 0x6e, 0x7f, 0x7b, 0xda, 0xd8, 0x95,
  0x50, 0x41, 0x61, 0x56, 0x41, 0x57, 0x7f, 0x66, 0x7b, 0xf2, 0xfb, 0x06,
  0x21, 0x1d, 0x3a, 0x51, 0x6a, 0x7f, 0x63, 0x6c, 0x7f, 0x48, 0x5c, 0x64,
  0x05, 0x0d, 0x07, 0xfb, 0x9f, 0xa2, 0x95, 0xcc, 0x81, 0xfe, 0xf0, 0xdb,
  0x6e, 0xf9, 0xff, 0xff, 0x04, 0x00, 0x00, 0x00, 0x20, 0x00, 0x00, 0x00,
  0xfd, 0xff, 0xff, 0xff, 0x7b, 0x09, 0x00, 0x00, 0x0e, 0x00, 0x00, 0x00,
  0x6c, 0x87, 0x00, 0x00, 0xce, 0xff, 0xff, 0xff, 0x4e, 0x00, 0x00, 0x00,
  0xe4, 0xff, 0xff, 0xff, 0x18, 0xfd, 0xff, 0xff, 0x9a, 0xf9, 0xff, 0xff,
  0x04, 0x00, 0x00, 0x00, 0x80, 0x04, 0x00, 0x00, 0x1a, 0x34, 0x25, 0x1b,
  0x27, 0x19, 0x24, 0x06, 0x11, 0x24, 0x0d, 0x13, 0x0d, 0x12, 0x19, 0x02,
  0xe4, 0x45, 0xf4, 0x01, 0xe9, 0xe5, 0xe1, 0x02, 0x15, 0xd0, 0x15, 0x1e,
  0x0f, 0x0a, 0x13, 0xff, 0x09, 0xe8, 0x0b, 0x12, 0x04, 0x00, 0x0a, 0x01,
  0xe7, 0xfd, 0xee, 0x01, 0xe6, 0xd9, 0xe6, 0xfd, 0x0f, 0x0e, 0x01, 0x1b,
  0x05, 0x04, 0x19, 0x07, 0xfd, 0x44, 0xf5, 0x21, 0xf8, 0xf3, 0x15, 0x07,
  0xf8, 0x7f, 0xe0, 0x20, 0xe4, 0xdb, 0xf6, 0x02, 0xf8, 0x7f, 0xf5, 0xfb,
  0xf8, 0x0b, 0xf2, 0xff, 0xed, 0x24, 0xf8, 0xf8, 0xf0, 0xfa, 0xdf, 0xfc,
  0x04, 0x09, 0xfc, 0xfa, 0x04, 0x08, 0x01, 0x06, 0xfd, 0x72, 0x02, 0x0a,
  0xff, 0x00, 0x0b, 0x00, 0x04, 0x10, 0x0e, 0x02, 0x04, 0x09, 0x0b, 0xff,
  0x0a, 0x13, 0x1a, 0x04, 0x0b, 0x13, 0x14, 0xff, 0xf6, 0x34, 0xe7, 0x09,
  0xe9, 0xe4, 0xef, 0xf8, 0x11, 0x25, 0x00, 0x16, 0x06, 0x04, 0x0b, 0xfd,
  0x10, 0x24, 0xfe, 0x1a, 0x11, 0x04, 0x07, 0x08, 0xf2, 0xb0, 0xfe, 0xee,
  0xfb, 0x06, 0xed, 0xfd, 0xfa, 0x81, 0x04, 0xf7, 0xfd, 0x07, 0xf4, 0x00,
  0xfe, 0xb8, 0x04, 0xf5, 0xff, 0x0a, 0xf8, 0x03, 0x01, 0x1f, 0x03, 0x02,
  0x02, 0x00, 0x01, 0x01, 0x04, 0xff, 0x08, 0x05, 0x03, 0x09, 0x00, 0x03,
  0x05, 0x26, 0x07, 0x08, 0x06, 0x03, 0x05, 0x01, 0x01, 0x0e, 0x01, 0x09,
  0x02, 0xff, 0x04, 0xfd, 0x04, 0x02, 0x02, 0x10, 0x02, 0xfe, 0x0c, 0x00,
  0xfd, 0x05, 0xff, 0x09, 0x01, 0xfd, 0x05, 0x02, 0x03, 0xbe, 0xfb, 0x05,
  0x03, 0xf8, 0x02, 0xfe, 0x1d, 0xca, 0x1c, 0x16, 0x1b, 0x10, 0x1c, 0x03,
  0xe6, 0xa5, 0xdd, 0x05, 0xed, 0xd3, 0xe1, 0xfe, 0x04, 0x81, 0x0c, 0x09,
  0x0a, 0x06, 0x08, 0x01, 0x16, 0xa4, 0x08, 0x13, 0x11, 0x0a, 0x1a, 0xff,
  0xe9, 0x9f, 0xec, 0x0d, 0xeb, 0xd5, 0xe8, 0x05, 0x18, 0xaa, 0x19, 0x01,
  0x16, 0x1c, 0x0b, 0x03, 0xea, 0xe2, 0xe7, 0xff, 0xe8, 0xe0, 0xf1, 0xfb,
  0xfc, 0xfd, 0x00, 0x04, 0xfa, 0xfc, 0xed, 0x02, 0xfc, 0x81, 0x07, 0xf4,
  0x08, 0x0d, 0xf2, 0xfb, 0xf9, 0x9c, 0xfd, 0xf7, 0xf7, 0x04, 0xf2, 0xff,
  0xfa, 0xc6, 0x04, 0xef, 0xff, 0x07, 0xf6, 0x01, 0x0d, 0xfd, 0x06, 0x0f,
  0x0d, 0x07, 0x0d, 0xfe, 0x0b, 0xdb, 0x04, 0x09, 0x09, 0x09, 0x0b, 0x02,
  0x0a, 0xfc, 0x12, 0x0a, 0x09, 0x0b, 0x0c, 0xfb, 0xf5, 0x0b, 0xfe, 0x06,
  0x00, 0xfa, 0xf8, 0xfe, 0x07, 0x03, 0xfd, 0x11, 0xf8, 0xf9, 0xfe, 0x00,
  0x0a, 0x16, 0x0b, 0x0d, 0x06, 0x01, 0x04, 0x00, 0xde, 0xa1, 0xf8, 0xfb,
  0xe4, 0xfc, 0xd4, 0x02, 0xed, 0x81, 0x05, 0xff, 0xf6, 0x10, 0xde, 0x01,
  0xf7, 0xb5, 0x0e, 0xf7, 0x05, 0x14, 0xef, 0x01, 0xe3, 0x01, 0xeb, 0xfe,
  0xe7, 0xeb, 0xec, 0xff, 0x12, 0x08, 0x09, 0x05, 0x0c, 0x08, 0x0e, 0x02,
  0x07, 0x52, 0x06, 0x0c, 0x08, 0x0a, 0x0f, 0x00, 0xda, 0x18, 0xc6, 0x18,
  0xde, 0xdf, 0xf4, 0xfc, 0x00, 0x58, 0xe2, 0x25, 0xef, 0xc1, 0x19, 0xfd,
  0xf4, 0x3f, 0xe0, 0x21, 0xef, 0xd5, 0x02, 0x01, 0x03, 0x3c, 0x1c, 0x19,
  0x09, 0x16, 0xf8, 0x0f, 0xfc, 0x7f, 0xfa, 0x02, 0x0a, 0x1b, 0xf6, 0x06,
  0xff, 0x3a, 0x06, 0x0a, 0xff, 0x18, 0x10, 0xf2, 0x1d, 0x6d, 0x0c, 0x1f,
  0x08, 0x03, 0x25, 0xf8, 0x22, 0x56, 0x06, 0x28, 0x06, 0x14, 0x15, 0x0e,
  0x12, 0x6a, 0x1d, 0x1c, 0x1a, 0x0b, 0x1e, 0x0a, 0x12, 0x43, 0x18, 0x0d,
  0x15, 0x16, 0xfd, 0xfa, 0xfc, 0x6e, 0x24, 0x05, 0x0b, 0x2d, 0xf6, 0x04,
  0x1d, 0x3f, 0x25, 0xfc, 0x22, 0x22, 0x07, 0x00, 0xdf, 0x0f, 0xf5, 0xe5,
  0xec, 0x03, 0xd9, 0x07, 0xf0, 0x3e, 0xf6, 0xfe, 0x00, 0xfb, 0xeb, 0xfb,
  0x07, 0x4b, 0x0d, 0x0b, 0x10, 0x15, 0x03, 0x0a, 0x1c, 0x3f, 0x06, 0x14,
  0x14, 0x05, 0x21, 0x00, 0xf5, 0x7f, 0xf1, 0x09, 0xf5, 0xff, 0x02, 0x01,
  0x07, 0x60, 0xf9, 0x12, 0x08, 0x0b, 0x10, 0x06, 0xf6, 0x4f, 0xec, 0x06,
  0xf7, 0xf9, 0x08, 0x08, 0x09, 0x49, 0xfb, 0xfd, 0x06, 0x00, 0xfd, 0x05,
  0x08, 0x44, 0x19, 0x00, 0x14, 0x26, 0x01, 0xfb, 0x07, 0x43, 0x05, 0x20,
  0x00, 0x08, 0x13, 0xf9, 0x0e, 0x63, 0x0d, 0x23, 0x0b, 0x17, 0x03, 0xfa,
  0x0f, 0x4f, 0x06, 0x14, 0x12, 0x12, 0x13, 0xff, 0x14, 0x7c, 0x05, 0x0f,
  0x17, 0x18, 0x15, 0x04, 0x1a, 0x74, 0x11, 0x06, 0x14, 0x0b, 0x12, 0x08,
  0x18, 0x7f, 0x09, 0x06, 0x16, 0x0f, 0x14, 0xfc, 0x0b, 0x45, 0x07, 0x0e,
  0x05, 0xf8, 0x0a, 0xfd, 0x06, 0x6d, 0xfc, 0x12, 0x04, 0xfd, 0x15, 0xfe,
  0x08, 0x4d, 0xfe, 0x0d, 0x0c, 0xfc, 0x06, 0x06, 0x08, 0x1b, 0x11, 0x0e,
  0x0c, 0x0b, 0x0a, 0xfc, 0xf7, 0xac, 0x16, 0x08, 0xff, 0x23, 0xf4, 0x00,
  0xe0, 0x81, 0xfb, 0x13, 0xf5, 0x12, 0xd1, 0xff, 0xfe, 0xfc, 0xf7, 0x0e,
  0xfb, 0xf9, 0xfc, 0x05, 0x19, 0x27, 0x10, 0x13, 0x1a, 0x0d, 0x17, 0xff,
  0xd7, 0xce, 0xd6, 0x16, 0xd6, 0xa1, 0xd6, 0x00, 0xe0, 0x56, 0xc4, 0x26,
  0xd8, 0xab, 0x01, 0xfc, 0xe6, 0x10, 0xd1, 0x24, 0xdf, 0x91, 0xfc, 0x00,
  0xda, 0xe7, 0xc6, 0x3d, 0xd1, 0xd2, 0xf8, 0x04, 0x4f, 0xc5, 0x2b, 0x22,
  0x3f, 0x2e, 0x50, 0x0a, 0x1f, 0xc7, 0x1d, 0x0e, 0x19, 0x08, 0x25, 0xf8,
  0x1c, 0x46, 0x1f, 0x18, 0x1d, 0x14, 0x21, 0xf2, 0x07, 0xc9, 0x01, 0x0a,
  0xf3, 0xed, 0x1b, 0xfd, 0x08, 0xd6, 0xfe, 0x03, 0x06, 0xf4, 0x01, 0x07,
  0xf2, 0xfc, 0xe1, 0xf4, 0xea, 0xca, 0x02, 0xf5, 0x07, 0xa9, 0xe4, 0x05,
  0xf6, 0xe5, 0x13, 0x03, 0x03, 0x81, 0xf2, 0xff, 0x11, 0xe0, 0x23, 0xf8,
  0xd2, 0xcc, 0xa6, 0x02, 0xb4, 0x8f, 0x02, 0x03, 0x2a, 0x24, 0x1b, 0x1d,
  0x20, 0x19, 0x2e, 0xfb, 0x14, 0xdd, 0x15, 0x00, 0x17, 0x20, 0x1c, 0x06,
  0xfc, 0xff, 0xfb, 0xf0, 0x05, 0x0d, 0xff, 0x09, 0x13, 0xf9, 0x11, 0x0a,
  0x08, 0xfc, 0x1a, 0x08, 0x13, 0x0a, 0x04, 0x03, 0x04, 0x11, 0x17, 0x04,
  0x2c, 0xf8, 0x42, 0x0a, 0x30, 0x35, 0x28, 0xf6, 0xdd, 0x2a, 0xd5, 0xdc,
  0xe2, 0xd5, 0xdc, 0xfd, 0xe1, 0x18, 0xef, 0xe3, 0xdb, 0xde, 0xe4, 0xf6,
  0xf6, 0x7f, 0xda, 0x19, 0xed, 0xd5, 0x10, 0x09, 0xf2, 0xf9, 0xfa, 0x0d,
  0xf8, 0xf5, 0xfc, 0xff, 0x12, 0xf6, 0x0f, 0x0d, 0x15, 0x13, 0x13, 0xff,
  0x11, 0x32, 0x15, 0x13, 0x17, 0x12, 0x1b, 0x05, 0xe1, 0xf2, 0xdb, 0xfa,
  0xe2, 0xf3, 0xe1, 0xff, 0x0e, 0xfe, 0x11, 0x08, 0x11, 0x08, 0x14, 0xff,
  0xed, 0x10, 0xd2, 0x06, 0xde, 0xcb, 0xf3, 0xff, 0xd8, 0x53, 0x8d, 0x12,
  0xc5, 0x81, 0x03, 0x03, 0xec, 0x29, 0xeb, 0x11, 0xde, 0xd1, 0xde, 0x04,
  0xe9, 0xbf, 0xfc, 0xfb, 0xf5, 0x0a, 0xe3, 0xfe, 0x09, 0x1a, 0xf7, 0x0d,
  0x0b, 0xf7, 0x1c, 0xfb, 0x18, 0x16, 0xff, 0x12, 0x11, 0xf3, 0x20, 0xfb,
  0x19, 0x0c, 0x09, 0x0e, 0x13, 0x05, 0x21, 0x00, 0xe9, 0x66, 0xfb, 0xea,
  0xf2, 0x04, 0xe8, 0x05, 0xe4, 0x67, 0xf3, 0xe1, 0xed, 0xfa, 0xdd, 0x02,
  0xf8, 0x2d, 0xfe, 0xed, 0x03, 0xfe, 0xf4, 0x02, 0x03, 0xcc, 0x08, 0xae,
  0x09, 0x11, 0x00, 0xfe, 0x0d, 0xa0, 0x11, 0xc0, 0x10, 0x12, 0x03, 0x02,
  0xfc, 0x81, 0x03, 0xc8, 0x06, 0x04, 0xff, 0x00, 0x35, 0x51, 0x24, 0x15,
  0x4e, 0x28, 0x53, 0xfa, 0x01, 0x49, 0x04, 0xe7, 0x00, 0xff, 0xef, 0xf1,
  0x27, 0x5e, 0x1e, 0xc0, 0x19, 0x2c, 0x10, 0x08, 0x09, 0xbf, 0xd1, 0xd9,
  0xdf, 0xca, 0xf5, 0x04, 0xec, 0xbd, 0xeb, 0xb3, 0xda, 0xdd, 0xe8, 0x0e,
  0x2b, 0x36, 0x26, 0xe9, 0x12, 0x13, 0x22, 0x09, 0xc9, 0x72, 0xe3, 0x2b,
  0xdd, 0xf6, 0xdb, 0xf8, 0x18, 0x69, 0x11, 0x3d, 0x16, 0x1b, 0x13, 0xee,
  0x02, 0x7f, 0x01, 0x4c, 0x22, 0x0e, 0x28, 0x12, 0x04, 0x11, 0x06, 0xf8,
  0x05, 0xfa, 0x04, 0x01, 0x0e, 0x18, 0xfe, 0x03, 0x0d, 0xfb, 0x0e, 0x01,
  0x0e, 0x23, 0x03, 0x01, 0x08, 0x02, 0x07, 0xfd, 0x0c, 0x15, 0x0b, 0x09,
  0x07, 0x05, 0x10, 0xfb, 0x0f, 0x08, 0x0d, 0x0e, 0x0c, 0x13, 0x0a, 0x00,
  0x08, 0x04, 0x02, 0x03, 0x06, 0x06, 0x0c, 0xfb, 0xd4, 0x4c, 0xa8, 0xf5,
  0xc9, 0xa9, 0xe1, 0x01, 0xe5, 0x16, 0xbe, 0xf4, 0xe2, 0x81, 0xee, 0xfa,
  0xd6, 0xe6, 0xa2, 0xf1, 0xc5, 0x89, 0xdf, 0xfb, 0x26, 0xfe, 0xff, 0xff,
  0x04, 0x00, 0x00, 0x00, 0x40, 0x00, 0x00, 0x00, 0x44, 0x00, 0x00, 0x00,
  0xb5, 0xff, 0xff, 0xff, 0x29, 0x00, 0x00, 0x00, 0x2e, 0x00, 0x00, 0x00,
  0x90, 0x00, 0x00, 0x00, 0x35, 0x00, 0x00, 0x00, 0xcf, 0x01, 0x00, 0x00,
  0xfc, 0xff, 0xff, 0xff, 0xfe, 0x00, 0x00, 0x00, 0x7a, 0x00, 0x00, 0x00,
  0xe1, 0xfe, 0xff, 0xff, 0x86, 0xfe, 0xff, 0xff, 0x60, 0x00, 0x00, 0x00,
  0xfc, 0xfe, 0xff, 0xff, 0x14, 0xfd, 0xff, 0xff, 0x88, 0xff, 0xff, 0xff,
  0x72, 0xfe, 0xff, 0xff, 0x04, 0x00, 0x00, 0x00, 0xa0, 0x00, 0x00, 0x00,
  0xfb, 0x37, 0x07, 0x00, 0xe4, 0x81, 0x0c, 0x1a, 0xf6, 0xc3, 0x1e, 0xf1,
  0xde, 0xc7, 0xfb, 0x0d, 0x49, 0xc9, 0xe6, 0x44, 0x02, 0xf7, 0xfc, 0xb3,
  0xdb, 0x03, 0x2c, 0xe6, 0x27, 0x81, 0xda, 0x4e, 0xba, 0xa6, 0x0f, 0xa6,
  0x6d, 0x7f, 0xed, 0xeb, 0xd3, 0x99, 0x11, 0x2b, 0x64, 0xb5, 0x44, 0x64,
  0xb8, 0xe9, 0xfd, 0x16, 0xeb, 0x7f, 0x08, 0x15, 0xf0, 0xc1, 0xf9, 0x27,
  0x14, 0x1f, 0x0e, 0x0f, 0xe6, 0xf3, 0x3a, 0x76, 0x3d, 0x2e, 0x0f, 0x81,
  0xd6, 0xab, 0xa8, 0x0b, 0x27, 0x8c, 0x49, 0x40, 0xf3, 0xeb, 0xc7, 0x81,
  0x52, 0x26, 0xc3, 0x2f, 0xd1, 0x4d, 0x2a, 0x4b, 0xb8, 0x56, 0xd4, 0x3f,
  0xff, 0xde, 0x1e, 0xec, 0x22, 0x81, 0xf1, 0x07, 0x05, 0x29, 0xdd, 0xed,
  0x11, 0xbe, 0x3e, 0x02, 0xec, 0x35, 0x62, 0x14, 0xf2, 0x71, 0xc7, 0x8f,
  0xbb, 0x2a, 0x68, 0x7f, 0x03, 0x33, 0x9d, 0xcd, 0xe0, 0xd1, 0xc6, 0xcd,
  0xd9, 0xd3, 0x2e, 0x4c, 0x26, 0xfd, 0xe6, 0xf4, 0x81, 0xe4, 0xe9, 0xc4,
  0xad, 0x42, 0xde, 0x08, 0x06, 0x1b, 0x02, 0x2f, 0x2f, 0xc3, 0x11, 0xc5,
  0xd6, 0x00, 0xd6, 0x81, 0x1e, 0xff, 0xff, 0xff, 0x04, 0x00, 0x00, 0x00,
  0x28, 0x00, 0x00, 0x00, 0x6c, 0x00, 0x00, 0x00, 0xb5, 0xfe, 0xff, 0xff,
  0xed, 0x01, 0x00, 0x00, 0x10, 0xff, 0xff, 0xff, 0x56, 0x02, 0x00, 0x00,
  0x5e, 0xff, 0xff, 0xff, 0x71, 0x00, 0x00, 0x00, 0xc3, 0xfe, 0xff, 0xff,
  0x0f, 0x00, 0x00, 0x00, 0x41, 0xff, 0xff, 0xff, 0x52, 0xff, 0xff, 0xff,
  0x04, 0x00, 0x00, 0x00, 0x08, 0x00, 0x00, 0x00, 0x01, 0x00, 0x00, 0x00,
  0x02, 0x00, 0x00, 0x00, 0x28, 0xf5, 0xff, 0xff, 0x2c, 0xf5, 0xff, 0xff,
  0x0f, 0x00, 0x00, 0x00, 0x4d, 0x4c, 0x49, 0x52, 0x20, 0x43, 0x6f, 0x6e,
  0x76, 0x65, 0x72, 0x74, 0x65, 0x64, 0x2e, 0x00, 0x01, 0x00, 0x00, 0x00,
  0x14, 0x00, 0x00, 0x00, 0x00, 0x00, 0x0e, 0x00, 0x18, 0x00, 0x14, 0x00,
  0x10, 0x00, 0x0c, 0x00, 0x08, 0x00, 0x04, 0x00, 0x0e, 0x00, 0x00, 0x00,
  0x14, 0x00, 0x00, 0x00, 0x1c, 0x00, 0x00, 0x00, 0x80, 0x01, 0x00, 0x00,
  0x84, 0x01, 0x00, 0x00, 0x88, 0x01, 0x00, 0x00, 0x04, 0x00, 0x00, 0x00,
  0x6d, 0x61, 0x69, 0x6e, 0x00, 0x00, 0x00, 0x00, 0x05, 0x00, 0x00, 0x00,
  0x1c, 0x01, 0x00, 0x00, 0xcc, 0x00, 0x00, 0x00, 0x98, 0x00, 0x00, 0x00,
  0x50, 0x00, 0x00, 0x00, 0x14, 0x00, 0x00, 0x00, 0x00, 0x00, 0x0e, 0x00,
  0x1a, 0x00, 0x14, 0x00, 0x10, 0x00, 0x0c, 0x00, 0x0b, 0x00, 0x04, 0x00,
  0x0e, 0x00, 0x00, 0x00, 0x1c, 0x00, 0x00, 0x00, 0x00, 0x00, 0x00, 0x09,
  0x1c, 0x00, 0x00, 0x00, 0x20, 0x00, 0x00, 0x00, 0x03, 0x00, 0x00, 0x00,
  0x00, 0x00, 0x06, 0x00, 0x08, 0x00, 0x04, 0x00, 0x06, 0x00, 0x00, 0x00,
  0x00, 0x00, 0x80, 0x3f, 0x01, 0x00, 0x00, 0x00, 0x0c, 0x00, 0x00, 0x00,
  0x01, 0x00, 0x00, 0x00, 0x0b, 0x00, 0x00, 0x00, 0xca, 0xff, 0xff, 0xff,
  0x14, 0x00, 0x00, 0x00, 0x00, 0x00, 0x00, 0x08, 0x10, 0x00, 0x00, 0x00,
  0x14, 0x00, 0x00, 0x00, 0x02, 0x00, 0x00, 0x00, 0xf8, 0xf5, 0xff, 0xff,
  0x01, 0x00, 0x00, 0x00, 0x0b, 0x00, 0x00, 0x00, 0x03, 0x00, 0x00, 0x00,
  0x0a, 0x00, 0x00, 0x00, 0x03, 0x00, 0x00, 0x00, 0x02, 0x00, 0x00, 0x00,
  0x00, 0x00, 0x0e, 0x00, 0x18, 0x00, 0x14, 0x00, 0x10, 0x00, 0x0c, 0x00,
  0x0b, 0x00, 0x04, 0x00, 0x0e, 0x00, 0x00, 0x00, 0x14, 0x00, 0x00, 0x00,
  0x00, 0x00, 0x00, 0x1b, 0x10, 0x00, 0x00, 0x00, 0x14, 0x00, 0x00, 0x00,
  0x01, 0x00, 0x00, 0x00, 0x3c, 0xf6, 0xff, 0xff, 0x01, 0x00, 0x00, 0x00,
  0x0a, 0x00, 0x00, 0x00, 0x02, 0x00, 0x00, 0x00, 0x09, 0x00, 0x00, 0x00,
  0x01, 0x00, 0x00, 0x00, 0xc2, 0xff, 0xff, 0xff, 0x10, 0x00, 0x00, 0x00,
  0x00, 0x00, 0x00, 0x01, 0x18, 0x00, 0x00, 0x00, 0x1c, 0x00, 0x00, 0x00,
  0xb4, 0xff, 0xff, 0xff, 0x00, 0x00, 0x00, 0x01, 0x02, 0x00, 0x00, 0x00,
  0x02, 0x00, 0x00, 0x00, 0x01, 0x00, 0x00, 0x00, 0x09, 0x00, 0x00, 0x00,
  0x03, 0x00, 0x00, 0x00, 0x08, 0x00, 0x00, 0x00, 0x05, 0x00, 0x00, 0x00,
  0x04, 0x00, 0x00, 0x00, 0x00, 0x00, 0x0e, 0x00, 0x14, 0x00, 0x00, 0x00,
  0x10, 0x00, 0x0c, 0x00, 0x0b, 0x00, 0x04, 0x00, 0x0e, 0x00, 0x00, 0x00,
  0x1c, 0x00, 0x00, 0x00, 0x00, 0x00, 0x00, 0x01, 0x24, 0x00, 0x00, 0x00,
  0x28, 0x00, 0x00, 0x00, 0x0c, 0x00, 0x10, 0x00, 0x00, 0x00, 0x0c, 0x00,
  0x08, 0x00, 0x07, 0x00, 0x0c, 0x00, 0x00, 0x00, 0x00, 0x00, 0x00, 0x01,
  0x02, 0x00, 0x00, 0x00, 0x02, 0x00, 0x00, 0x00, 0x01, 0x00, 0x00, 0x00,
  0x08, 0x00, 0x00, 0x00, 0x03, 0x00, 0x00, 0x00, 0x00, 0x00, 0x00, 0x00,
  0x07, 0x00, 0x00, 0x00, 0x06, 0x00, 0x00, 0x00, 0x01, 0x00, 0x00, 0x00,
  0x0c, 0x00, 0x00, 0x00, 0x01, 0x00, 0x00, 0x00, 0x00, 0x00, 0x00, 0x00,
  0x0d, 0x00, 0x00, 0x00, 0x40, 0x09, 0x00, 0x00, 0xe4, 0x08, 0x00, 0x00,
  0xfc, 0x07, 0x00, 0x00, 0x28, 0x07, 0x00, 0x00, 0x14, 0x06, 0x00, 0x00,
  0xf0, 0x04, 0x00, 0x00, 0x3c, 0x04, 0x00, 0x00, 0x78, 0x03, 0x00, 0x00,
  0xa4, 0x02, 0x00, 0x00, 0xb0, 0x01, 0x00, 0x00, 0x1c, 0x01, 0x00, 0x00,
  0x80, 0x00, 0x00, 0x00, 0x04, 0x00, 0x00, 0x00, 0x0a, 0xf7, 0xff, 0xff,
  0x00, 0x00, 0x00, 0x01, 0x18, 0x00, 0x00, 0x00, 0x20, 0x00, 0x00, 0x00,
  0x3c, 0x00, 0x00, 0x00, 0x0d, 0x00, 0x00, 0x00, 0x00, 0x00, 0x00, 0x09,
  0x50, 0x00, 0x00, 0x00, 0x02, 0x00, 0x00, 0x00, 0xff, 0xff, 0xff, 0xff,
  0x0a, 0x00, 0x00, 0x00, 0xec, 0xf6, 0xff, 0xff, 0x08, 0x00, 0x00, 0x00,
  0x10, 0x00, 0x00, 0x00, 0x01, 0x00, 0x00, 0x00, 0x80, 0xff, 0xff, 0xff,
  0xff, 0xff, 0xff, 0xff, 0x01, 0x00, 0x00, 0x00, 0x00, 0x00, 0x80, 0x3b,
  0x1b, 0x00, 0x00, 0x00, 0x53, 0x74, 0x61, 0x74, 0x65, 0x66, 0x75, 0x6c,
  0x50, 0x61, 0x72, 0x74, 0x69, 0x74, 0x69, 0x6f, 0x6e, 0x65, 0x64, 0x43,
  0x61, 0x6c, 0x6c, 0x5f, 0x31, 0x3a, 0x30, 0x00, 0x02, 0x00, 0x00, 0x00,
  0x01, 0x00, 0x00, 0x00, 0x0a, 0x00, 0x00, 0x00, 0x82, 0xf7, 0xff, 0xff,
  0x00, 0x00, 0x00, 0x01, 0x18, 0x00, 0x00, 0x00, 0x20, 0x00, 0x00, 0x00,
  0x3c, 0x00, 0x00, 0x00, 0x0c, 0x00, 0x00, 0x00, 0x00, 0x00, 0x00, 0x09,
  0x70, 0x00, 0x00, 0x00, 0x02, 0x00, 0x00, 0x00, 0xff, 0xff, 0xff, 0xff,
  0x0a, 0x00, 0x00, 0x00, 0x64, 0xf7, 0xff, 0xff, 0x08, 0x00, 0x00, 0x00,
  0x10, 0x00, 0x00, 0x00, 0x01, 0x00, 0x00, 0x00, 0x7d, 0x00, 0x00, 0x00,
  0x00, 0x00, 0x00, 0x00, 0x01, 0x00, 0x00, 0x00, 0x03, 0xd3, 0x71, 0x3e,
  0x38, 0x00, 0x00, 0x00, 0x73, 0x65, 0x71, 0x75, 0x65, 0x6e, 0x74, 0x69,
  0x61, 0x6c, 0x5f, 0x31, 0x2f, 0x64, 0x65, 0x6e, 0x73, 0x65, 0x5f, 0x31,
  0x2f, 0x4d, 0x61, 0x74, 0x4d, 0x75, 0x6c, 0x3b, 0x73, 0x65, 0x71, 0x75,
  0x65, 0x6e, 0x74, 0x69, 0x61, 0x6c, 0x5f, 0x31, 0x2f, 0x64, 0x65, 0x6e,
  0x73, 0x65, 0x5f, 0x31, 0x2f, 0x42, 0x69, 0x61, 0x73, 0x41, 0x64, 0x64,
  0x00, 0x00, 0x00, 0x00, 0x02, 0x00, 0x00, 0x00, 0x01, 0x00, 0x00, 0x00,
  0x0a, 0x00, 0x00, 0x00, 0x1a, 0xf8, 0xff, 0xff, 0x00, 0x00, 0x00, 0x01,
  0x18, 0x00, 0x00, 0x00, 0x20, 0x00, 0x00, 0x00, 0x40, 0x00, 0x00, 0x00,
  0x0b, 0x00, 0x00, 0x00, 0x00, 0x00, 0x00, 0x09, 0x68, 0x00, 0x00, 0x00,
  0x02, 0x00, 0x00, 0x00, 0xff, 0xff, 0xff, 0xff, 0x10, 0x00, 0x00, 0x00,
  0xfc, 0xf7, 0xff, 0xff, 0x08, 0x00, 0x00, 0x00, 0x14, 0x00, 0x00, 0x00,
  0x01, 0x00, 0x00, 0x00, 0x80, 0xff, 0xff, 0xff, 0xff, 0xff, 0xff, 0xff,
  0x00, 0x00, 0x00, 0x00, 0x01, 0x00, 0x00, 0x00, 0x67, 0xf0, 0x56, 0x3e,
  0x2c, 0x00, 0x00, 0x00, 0x73, 0x65, 0x71, 0x75, 0x65, 0x6e, 0x74, 0x69,
  0x61, 0x6c, 0x5f, 0x31, 0x2f, 0x67, 0x6c, 0x6f, 0x62, 0x61, 0x6c, 0x5f,
  0x61, 0x76, 0x65, 0x72, 0x61, 0x67, 0x65, 0x5f, 0x70, 0x6f, 0x6f, 0x6c,
  0x69, 0x6e, 0x67, 0x32, 0x64, 0x5f, 0x31, 0x2f, 0x4d, 0x65, 0x61, 0x6e,
  0x00, 0x00, 0x00, 0x00, 0x02, 0x00, 0x00, 0x00, 0x01, 0x00, 0x00, 0x00,
  0x10, 0x00, 0x00, 0x00, 0xaa, 0xf8, 0xff, 0xff, 0x00, 0x00, 0x00, 0x01,
  0x18, 0x00, 0x00, 0x00, 0x28, 0x00, 0x00, 0x00, 0x44, 0x00, 0x00, 0x00,
  0x0a, 0x00, 0x00, 0x00, 0x00, 0x00, 0x00, 0x09, 0xc0, 0x00, 0x00, 0x00,
  0x04, 0x00, 0x00, 0x00, 0xff, 0xff, 0xff, 0xff, 0x07, 0x00, 0x00, 0x00,
  0x07, 0x00, 0x00, 0x00, 0x10, 0x00, 0x00, 0x00, 0x94, 0xf8, 0xff, 0xff,
  0x08, 0x00, 0x00, 0x00, 0x10, 0x00, 0x00, 0x00, 0x01, 0x00, 0x00, 0x00,
  0x80, 0xff, 0xff, 0xff, 0xff, 0xff, 0xff, 0xff, 0x01, 0x00, 0x00, 0x00,
  0xf3, 0x3d, 0x2f, 0x3f, 0x80, 0x00, 0x00, 0x00, 0x73, 0x65, 0x71, 0x75,
  0x65, 0x6e, 0x74, 0x69, 0x61, 0x6c, 0x5f, 0x31, 0x2f, 0x63, 0x6f, 0x6e,
  0x76, 0x32, 0x64, 0x5f, 0x31, 0x5f, 0x32, 0x2f, 0x52, 0x65, 0x6c, 0x75,
  0x3b, 0x73, 0x65, 0x71, 0x75, 0x65, 0x6e, 0x74, 0x69, 0x61, 0x6c, 0x5f,
  0x31, 0x2f, 0x63, 0x6f, 0x6e, 0x76, 0x32, 0x64, 0x5f, 0x31, 0x5f, 0x32,
  0x2f, 0x42, 0x69, 0x61, 0x73, 0x41, 0x64, 0x64, 0x3b, 0x73, 0x65, 0x71,
  0x75, 0x65, 0x6e, 0x74, 0x69, 0x61, 0x6c, 0x5f, 0x31, 0x2f, 0x63, 0x6f,
  0x6e, 0x76, 0x32, 0x64, 0x5f, 0x31, 0x5f, 0x32, 0x2f, 0x63, 0x6f, 0x6e,
  0x76, 0x6f, 0x6c, 0x75, 0x74, 0x69, 0x6f, 0x6e, 0x3b, 0x73, 0x65, 0x71,
  0x75, 0x65, 0x6e, 0x74, 0x69, 0x61, 0x6c, 0x5f, 0x31, 0x2f, 0x63, 0x6f,
  0x6e, 0x76, 0x32, 0x64, 0x5f, 0x31, 0x5f, 0x32, 0x2f, 0x53, 0x71, 0x75,
  0x65, 0x65, 0x7a, 0x65, 0x00, 0x00, 0x00, 0x00, 0x04, 0x00, 0x00, 0x00,
  0x01, 0x00, 0x00, 0x00, 0x07, 0x00, 0x00, 0x00, 0x07, 0x00, 0x00, 0x00,
  0x10, 0x00, 0x00, 0x00, 0x9a, 0xf9, 0xff, 0xff, 0x00, 0x00, 0x00, 0x01,
  0x18, 0x00, 0x00, 0x00, 0x28, 0x00, 0x00, 0x00, 0x48, 0x00, 0x00, 0x00,
  0x09, 0x00, 0x00, 0x00, 0x00, 0x00, 0x00, 0x09, 0xa0, 0x00, 0x00, 0x00,
  0x04, 0x00, 0x00, 0x00, 0xff, 0xff, 0xff, 0xff, 0x0e, 0x00, 0x00, 0x00,
  0x0e, 0x00, 0x00, 0x00, 0x08, 0x00, 0x00, 0x00, 0x84, 0xf9, 0xff, 0xff,
  0x08, 0x00, 0x00, 0x00, 0x14, 0x00, 0x00, 0x00, 0x01, 0x00, 0x00, 0x00,
  0x80, 0xff, 0xff, 0xff, 0xff, 0xff, 0xff, 0xff, 0x00, 0x00, 0x00, 0x00,
  0x01, 0x00, 0x00, 0x00, 0xf6, 0x07, 0xc7, 0x3d, 0x5c, 0x00, 0x00, 0x00,
  0x73, 0x65, 0x71, 0x75, 0x65, 0x6e, 0x74, 0x69, 0x61, 0x6c, 0x5f, 0x31,
  0x2f, 0x63, 0x6f, 0x6e, 0x76, 0x32, 0x64, 0x5f, 0x31, 0x2f, 0x52, 0x65,
  0x6c, 0x75, 0x3b, 0x73, 0x65, 0x71, 0x75, 0x65, 0x6e, 0x74, 0x69, 0x61,
  0x6c, 0x5f, 0x31, 0x2f, 0x63, 0x6f, 0x6e, 0x76, 0x32, 0x64, 0x5f, 0x31,
  0x2f, 0x42, 0x69, 0x61, 0x73, 0x41, 0x64, 0x64, 0x3b, 0x73, 0x65, 0x71,
  0x75, 0x65, 0x6e, 0x74, 0x69, 0x61, 0x6c, 0x5f, 0x31, 0x2f, 0x63, 0x6f,
  0x6e, 0x76, 0x32, 0x64, 0x5f, 0x31, 0x2f, 0x63, 0x6f, 0x6e, 0x76, 0x6f,
  0x6c, 0x75, 0x74, 0x69, 0x6f, 0x6e, 0x3b, 0x31, 0x00, 0x00, 0x00, 0x00,
  0x04, 0x00, 0x00, 0x00, 0x01, 0x00, 0x00, 0x00, 0x0e, 0x00, 0x00, 0x00,
  0x0e, 0x00, 0x00, 0x00, 0x08, 0x00, 0x00, 0x00, 0xc2, 0xfa, 0xff, 0xff,
  0x00, 0x00, 0x00, 0x01, 0x14, 0x00, 0x00, 0x00, 0x88, 0x00, 0x00, 0x00,
  0x08, 0x00, 0x00, 0x00, 0x00, 0x00, 0x00, 0x09, 0x94, 0x00, 0x00, 0x00,
  0x3c, 0xfa, 0xff, 0xff, 0x08, 0x00, 0x00, 0x00, 0x4c, 0x00, 0x00, 0x00,
  0x08, 0x00, 0x00, 0x00, 0x00, 0x00, 0x00, 0x00, 0x00, 0x00, 0x00, 0x00,
  0x00, 0x00, 0x00, 0x00, 0x00, 0x00, 0x00, 0x00, 0x00, 0x00, 0x00, 0x00,
  0x00, 0x00, 0x00, 0x00, 0x00, 0x00, 0x00, 0x00, 0x00, 0x00, 0x00, 0x00,
  0x00, 0x00, 0x00, 0x00, 0x00, 0x00, 0x00, 0x00, 0x00, 0x00, 0x00, 0x00,
  0x00, 0x00, 0x00, 0x00, 0x00, 0x00, 0x00, 0x00, 0x00, 0x00, 0x00, 0x00,
  0x00, 0x00, 0x00, 0x00, 0x00, 0x00, 0x00, 0x00, 0x00, 0x00, 0x00, 0x00,
  0x08, 0x00, 0x00, 0x00, 0xff, 0x57, 0xc8, 0x3c, 0xe7, 0xe5, 0xba, 0x3c,
  0x70, 0xc2, 0xfa, 0x3c, 0x1c, 0xa2, 0x38, 0x3c, 0xe1, 0x14, 0xf4, 0x3c,
  0x7b, 0x6a, 0xd0, 0x3c, 0xa3, 0xdc, 0xd4, 0x3c, 0xe4, 0x5e, 0x03, 0x3b,
  0x12, 0x00, 0x00, 0x00, 0x74, 0x66, 0x6c, 0x2e, 0x70, 0x73, 0x65, 0x75,
  0x64, 0x6f, 0x5f, 0x71, 0x63, 0x6f, 0x6e, 0x73, 0x74, 0x35, 0x00, 0x00,
  0x04, 0x00, 0x00, 0x00, 0x08, 0x00, 0x00, 0x00, 0x03, 0x00, 0x00, 0x00,
  0x03, 0x00, 0x00, 0x00, 0x01, 0x00, 0x00, 0x00, 0x82, 0xfb, 0xff, 0xff,
  0x00, 0x00, 0x00, 0x01, 0x14, 0x00, 0x00, 0x00, 0x84, 0x00, 0x00, 0x00,
  0x07, 0x00, 0x00, 0x00, 0x00, 0x00, 0x00, 0x02, 0x90, 0x00, 0x00, 0x00,
  0xfc, 0xfa, 0xff, 0xff, 0x08, 0x00, 0x00, 0x00, 0x48, 0x00, 0x00, 0x00,
  0x08, 0x00, 0x00, 0x00, 0x00, 0x00, 0x00, 0x00, 0x00, 0x00, 0x00, 0x00,
  0x00, 0x00, 0x00, 0x00, 0x00, 0x00, 0x00, 0x00, 0x00, 0x00, 0x00, 0x00,
  0x00, 0x00, 0x00, 0x00, 0x00, 0x00, 0x00, 0x00, 0x00, 0x00, 0x00, 0x00,
  0x00, 0x00, 0x00, 0x00, 0x00, 0x00, 0x00, 0x00, 0x00, 0x00, 0x00, 0x00,
  0x00, 0x00, 0x00, 0x00, 0x00, 0x00, 0x00, 0x00, 0x00, 0x00, 0x00, 0x00,
  0x00, 0x00, 0x00, 0x00, 0x00, 0x00, 0x00, 0x00, 0x08, 0x00, 0x00, 0x00,
  0x21, 0x21, 0xc9, 0x38, 0x89, 0xa1, 0xbb, 0x38, 0x2f, 0xbe, 0xfb, 0x38,
  0x78, 0x5b, 0x39, 0x38, 0xec, 0x09, 0xf5, 0x38, 0xb8, 0x3b, 0xd1, 0x38,
  0x56, 0xb2, 0xd5, 0x38, 0xc7, 0xe2, 0x03, 0x37, 0x12, 0x00, 0x00, 0x00,
  0x74, 0x66, 0x6c, 0x2e, 0x70, 0x73, 0x65, 0x75, 0x64, 0x6f, 0x5f, 0x71,
  0x63, 0x6f, 0x6e, 0x73, 0x74, 0x34, 0x00, 0x00, 0x01, 0x00, 0x00, 0x00,
  0x08, 0x00, 0x00, 0x00, 0x32, 0xfc, 0xff, 0xff, 0x00, 0x00, 0x00, 0x01,
  0x14, 0x00, 0x00, 0x00, 0xe8, 0x00, 0x00, 0x00, 0x06, 0x00, 0x00, 0x00,
  0x00, 0x00, 0x00, 0x09, 0xf4, 0x00, 0x00, 0x00, 0xac, 0xfb, 0xff, 0xff,
  0x08, 0x00, 0x00, 0x00, 0x8c, 0x00, 0x00, 0x00, 0x10, 0x00, 0x00, 0x00,
  0x00, 0x00, 0x00, 0x00, 0x00, 0x00, 0x00, 0x00, 0x00, 0x00, 0x00, 0x00,
  0x00, 0x00, 0x00, 0x00, 0x00, 0x00, 0x00, 0x00, 0x00, 0x00, 0x00, 0x00,
  0x00, 0x00, 0x00, 0x00, 0x00, 0x00, 0x00, 0x00, 0x00, 0x00, 0x00, 0x00,
  0x00, 0x00, 0x00, 0x00, 0x00, 0x00, 0x00, 0x00, 0x00, 0x00, 0x00, 0x00,
  0x00, 0x00, 0x00, 0x00, 0x00, 0x00, 0x00, 0x00, 0x00, 0x00, 0x00, 0x00,
  0x00, 0x00, 0x00, 0x00, 0x00, 0x00, 0x00, 0x00, 0x00, 0x00, 0x00, 0x00,
  0x00, 0x00, 0x00, 0x00, 0x00, 0x00, 0x00, 0x00, 0x00, 0x00, 0x00, 0x00,
  0x00, 0x00, 0x00, 0x00, 0x00, 0x00, 0x00, 0x00, 0x00, 0x00, 0x00, 0x00,
  0x00, 0x00, 0x00, 0x00, 0x00, 0x00, 0x00, 0x00, 0x00, 0x00, 0x00, 0x00,
  0x00, 0x00, 0x00, 0x00, 0x00, 0x00, 0x00, 0x00, 0x00, 0x00, 0x00, 0x00,
  0x00, 0x00, 0x00, 0x00, 0x00, 0x00, 0x00, 0x00, 0x00, 0x00, 0x00, 0x00,
  0x10, 0x00, 0x00, 0x00, 0x13, 0x7f, 0xae, 0x3c, 0xfd, 0xae, 0x9a, 0x3c,
  0xba, 0x33, 0x36, 0x3d, 0xea, 0xea, 0xe6, 0x3c, 0x66, 0xa6, 0xe2, 0x3c,
  0xb3, 0x90, 0x2c, 0x3d, 0xd4, 0x5b, 0x24, 0x3c, 0x3b, 0x00, 0x81, 0x3c,
  0x70, 0xd5, 0x83, 0x3c, 0x2f, 0xba, 0xdf, 0x3c, 0xd1, 0x61, 0x46, 0x3c,
  0xb5, 0x34, 0x77, 0x3c, 0x1b, 0xc0, 0xec, 0x3c, 0x4a, 0x64, 0x02, 0x3d,
  0x98, 0xf0, 0x18, 0x3c, 0xba, 0x4c, 0xdb, 0x3c, 0x12, 0x00, 0x00, 0x00,
  0x74, 0x66, 0x6c, 0x2e, 0x70, 0x73, 0x65, 0x75, 0x64, 0x6f, 0x5f, 0x71,
  0x63, 0x6f, 0x6e, 0x73, 0x74, 0x33, 0x00, 0x00, 0x04, 0x00, 0x00, 0x00,
  0x10, 0x00, 0x00, 0x00, 0x03, 0x00, 0x00, 0x00, 0x03, 0x00, 0x00, 0x00,
  0x08, 0x00, 0x00, 0x00, 0x52, 0xfd, 0xff, 0xff, 0x00, 0x00, 0x00, 0x01,
  0x14, 0x00, 0x00, 0x00, 0xe4, 0x00, 0x00, 0x00, 0x05, 0x00, 0x00, 0x00,
  0x00, 0x00, 0x00, 0x02, 0xf0, 0x00, 0x00, 0x00, 0xcc, 0xfc, 0xff, 0xff,
  0x08, 0x00, 0x00, 0x00, 0x88, 0x00, 0x00, 0x00, 0x10, 0x00, 0x00, 0x00,
  0x00, 0x00, 0x00, 0x00, 0x00, 0x00, 0x00, 0x00, 0x00, 0x00, 0x00, 0x00,
  0x00, 0x00, 0x00, 0x00, 0x00, 0x00, 0x00, 0x00, 0x00, 0x00, 0x00, 0x00,
  0x00, 0x00, 0x00, 0x00, 0x00, 0x00, 0x00, 0x00, 0x00, 0x00, 0x00, 0x00,
  0x00, 0x00, 0x00, 0x00, 0x00, 0x00, 0x00, 0x00, 0x00, 0x00, 0x00, 0x00,
  0x00, 0x00, 0x00, 0x00, 0x00, 0x00, 0x00, 0x00, 0x00, 0x00, 0x00, 0x00,
  0x00, 0x00, 0x00, 0x00, 0x00, 0x00, 0x00, 0x00, 0x00, 0x00, 0x00, 0x00,
  0x00, 0x00, 0x00, 0x00, 0x00, 0x00, 0x00, 0x00, 0x00, 0x00, 0x00, 0x00,
  0x00, 0x00, 0x00, 0x00, 0x00, 0x00, 0x00, 0x00, 0x00, 0x00, 0x00, 0x00,
  0x00, 0x00, 0x00, 0x00, 0x00, 0x00, 0x00, 0x00, 0x00, 0x00, 0x00, 0x00,
  0x00, 0x00, 0x00, 0x00, 0x00, 0x00, 0x00, 0x00, 0x00, 0x00, 0x00, 0x00,
  0x00, 0x00, 0x00, 0x00, 0x00, 0x00, 0x00, 0x00, 0x10, 0x00, 0x00, 0x00,
  0x35, 0xaa, 0x07, 0x3b, 0xac, 0x85, 0xf0, 0x3a, 0xe0, 0xa7, 0x8d, 0x3b,
  0xca, 0x87, 0x33, 0x3b, 0x66, 0x36, 0x30, 0x3b, 0xd9, 0x29, 0x86, 0x3b,
  0xfc, 0x90, 0x7f, 0x3a, 0x62, 0x96, 0xc8, 0x3a, 0x07, 0xfe, 0xcc, 0x3a,
  0xb0, 0xf0, 0x2d, 0x3b, 0x35, 0x3c, 0x9a, 0x3a, 0xa9, 0x31, 0xc0, 0x3a,
  0xb2, 0x10, 0x38, 0x3b, 0x07, 0xc0, 0x4a, 0x3b, 0x8f, 0xcf, 0x6d, 0x3a,
  0x76, 0x7f, 0x2a, 0x3b, 0x12, 0x00, 0x00, 0x00, 0x74, 0x66, 0x6c, 0x2e,
  0x70, 0x73, 0x65, 0x75, 0x64, 0x6f, 0x5f, 0x71, 0x63, 0x6f, 0x6e, 0x73,
  0x74, 0x32, 0x00, 0x00, 0x01, 0x00, 0x00, 0x00, 0x10, 0x00, 0x00, 0x00,
  0x62, 0xfe, 0xff, 0xff, 0x00, 0x00, 0x00, 0x01, 0x14, 0x00, 0x00, 0x00,
  0xa0, 0x00, 0x00, 0x00, 0x04, 0x00, 0x00, 0x00, 0x00, 0x00, 0x00, 0x09,
  0xac, 0x00, 0x00, 0x00, 0xdc, 0xfd, 0xff, 0xff, 0x08, 0x00, 0x00, 0x00,
  0x5c, 0x00, 0x00, 0x00, 0x0a, 0x00, 0x00, 0x00, 0x00, 0x00, 0x00, 0x00,
  0x00, 0x00, 0x00, 0x00, 0x00, 0x00, 0x00, 0x00, 0x00, 0x00, 0x00, 0x00,
  0x00, 0x00, 0x00, 0x00, 0x00, 0x00, 0x00, 0x00, 0x00, 0x00, 0x00, 0x00,
  0x00, 0x00, 0x00, 0x00, 0x00, 0x00, 0x00, 0x00, 0x00, 0x00, 0x00, 0x00,
  0x00, 0x00, 0x00, 0x00, 0x00, 0x00, 0x00, 0x00, 0x00, 0x00, 0x00, 0x00,
  0x00, 0x00, 0x00, 0x00, 0x00, 0x00, 0x00, 0x00, 0x00, 0x00, 0x00, 0x00,
  0x00, 0x00, 0x00, 0x00, 0x00, 0x00, 0x00, 0x00, 0x00, 0x00, 0x00, 0x00,
  0x00, 0x00, 0x00, 0x00, 0x00, 0x00, 0x00, 0x00, 0x0a, 0x00, 0x00, 0x00,
  0x00, 0xe8, 0xa6, 0x3c, 0x5b, 0xf8, 0x5c, 0x3c, 0x73, 0xef, 0xd5, 0x3b,
  0x63, 0x62, 0x8f, 0x3c, 0xec, 0xb7, 0xe4, 0x3b, 0x3c, 0x4d, 0x28, 0x3c,
  0xd5, 0xe7, 0xb1, 0x3c, 0xe0, 0x8c, 0x26, 0x3c, 0x4c, 0x7e, 0x77, 0x3c,
  0xaf, 0x2c, 0x2e, 0x3c, 0x12, 0x00, 0x00, 0x00, 0x74, 0x66, 0x6c, 0x2e,
  0x70, 0x73, 0x65, 0x75, 0x64, 0x6f, 0x5f, 0x71, 0x63, 0x6f, 0x6e, 0x73,
  0x74, 0x31, 0x00, 0x00, 0x02, 0x00, 0x00, 0x00, 0x0a, 0x00, 0x00, 0x00,
  0x10, 0x00, 0x00, 0x00, 0x32, 0xff, 0xff, 0xff, 0x00, 0x00, 0x00, 0x01,
  0x14, 0x00, 0x00, 0x00, 0xa0, 0x00, 0x00, 0x00, 0x03, 0x00, 0x00, 0x00,
  0x00, 0x00, 0x00, 0x02, 0xac, 0x00, 0x00, 0x00, 0xac, 0xfe, 0xff, 0xff,
  0x08, 0x00, 0x00, 0x00, 0x5c, 0x00, 0x00, 0x00, 0x0a, 0x00, 0x00, 0x00,
  0x00, 0x00, 0x00, 0x00, 0x00, 0x00, 0x00, 0x00, 0x00, 0x00, 0x00, 0x00,
  0x00, 0x00, 0x00, 0x00, 0x00, 0x00, 0x00, 0x00, 0x00, 0x00, 0x00, 0x00,
  0x00, 0x00, 0x00, 0x00, 0x00, 0x00, 0x00, 0x00, 0x00, 0x00, 0x00, 0x00,
  0x00, 0x00, 0x00, 0x00, 0x00, 0x00, 0x00, 0x00, 0x00, 0x00, 0x00, 0x00,
  0x00, 0x00, 0x00, 0x00, 0x00, 0x00, 0x00, 0x00, 0x00, 0x00, 0x00, 0x00,
  0x00, 0x00, 0x00, 0x00, 0x00, 0x00, 0x00, 0x00, 0x00, 0x00, 0x00, 0x00,
  0x00, 0x00, 0x00, 0x00, 0x00, 0x00, 0x00, 0x00, 0x00, 0x00, 0x00, 0x00,
  0x0a, 0x00, 0x00, 0x00, 0xad, 0x22, 0x8c, 0x3b, 0x1e, 0x87, 0x39, 0x3b,
  0x11, 0x9f, 0xb3, 0x3a, 0xc9, 0xc5, 0x70, 0x3b, 0x88, 0x08, 0xc0, 0x3a,
  0x9c, 0x4e, 0x0d, 0x3b, 0xdd, 0x5e, 0x95, 0x3b, 0x2a, 0xd6, 0x0b, 0x3b,
  0xfe, 0xcb, 0x4f, 0x3b, 0xea, 0x3c, 0x12, 0x3b, 0x11, 0x00, 0x00, 0x00,
  0x74, 0x66, 0x6c, 0x2e, 0x70, 0x73, 0x65, 0x75, 0x64, 0x6f, 0x5f, 0x71,
  0x63, 0x6f, 0x6e, 0x73, 0x74, 0x00, 0x00, 0x00, 0x01, 0x00, 0x00, 0x00,
  0x0a, 0x00, 0x00, 0x00, 0x00, 0x00, 0x16, 0x00, 0x1c, 0x00, 0x18, 0x00,
  0x17, 0x00, 0x10, 0x00, 0x0c, 0x00, 0x08, 0x00, 0x00, 0x00, 0x00, 0x00,
  0x00, 0x00, 0x07, 0x00, 0x16, 0x00, 0x00, 0x00, 0x00, 0x00, 0x00, 0x01,
  0x18, 0x00, 0x00, 0x00, 0x18, 0x00, 0x00, 0x00, 0x02, 0x00, 0x00, 0x00,
  0x00, 0x00, 0x00, 0x02, 0x20, 0x00, 0x00, 0x00, 0x04, 0x00, 0x04, 0x00,
  0x04, 0x00, 0x00, 0x00, 0x0e, 0x00, 0x00, 0x00, 0x61, 0x72, 0x69, 0x74,
  0x68, 0x2e, 0x63, 0x6f, 0x6e, 0x73, 0x74, 0x61, 0x6e, 0x74, 0x00, 0x00,
  0x01, 0x00, 0x00, 0x00, 0x02, 0x00, 0x00, 0x00, 0x00, 0x00, 0x16, 0x00,
  0x20, 0x00, 0x1c, 0x00, 0x1b, 0x00, 0x14, 0x00, 0x10, 0x00, 0x0c, 0x00,
  0x00, 0x00, 0x00, 0x00, 0x08, 0x00, 0x07, 0x00, 0x16, 0x00, 0x00, 0x00,
  0x00, 0x00, 0x00, 0x01, 0x18, 0x00, 0x00, 0x00, 0x34, 0x00, 0x00, 0x00,
  0x50, 0x00, 0x00, 0x00, 0x01, 0x00, 0x00, 0x00, 0x00, 0x00, 0x00, 0x09,
  0x68, 0x00, 0x00, 0x00, 0x04, 0x00, 0x00, 0x00, 0xff, 0xff, 0xff, 0xff,
  0x1c, 0x00, 0x00, 0x00, 0x1c, 0x00, 0x00, 0x00, 0x01, 0x00, 0x00, 0x00,
  0x0c, 0x00, 0x0c, 0x00, 0x00, 0x00, 0x00, 0x00, 0x08, 0x00, 0x04, 0x00,
  0x0c, 0x00, 0x00, 0x00, 0x08, 0x00, 0x00, 0x00, 0x10, 0x00, 0x00, 0x00,
  0x01, 0x00, 0x00, 0x00, 0x80, 0xff, 0xff, 0xff, 0xff, 0xff, 0xff, 0xff,
  0x01, 0x00, 0x00, 0x00, 0x81, 0x80, 0x80, 0x3b, 0x1e, 0x00, 0x00, 0x00,
  0x73, 0x65, 0x72, 0x76, 0x69, 0x6e, 0x67, 0x5f, 0x64, 0x65, 0x66, 0x61,
  0x75, 0x6c, 0x74, 0x5f, 0x6b, 0x65, 0x72, 0x61, 0x73, 0x5f, 0x74, 0x65,
  0x6e, 0x73, 0x6f, 0x72, 0x3a, 0x30, 0x00, 0x00, 0x04, 0x00, 0x00, 0x00,
  0x01, 0x00, 0x00, 0x00, 0x1c, 0x00, 0x00, 0x00, 0x1c, 0x00, 0x00, 0x00,
  0x01, 0x00, 0x00, 0x00, 0x04, 0x00, 0x00, 0x00, 0x4c, 0x00, 0x00, 0x00,
  0x2c, 0x00, 0x00, 0x00, 0x18, 0x00, 0x00, 0x00, 0x04, 0x00, 0x00, 0x00,
  0xd0, 0xff, 0xff, 0xff, 0x19, 0x00, 0x00, 0x00, 0x02, 0x00, 0x00, 0x00,
  0x00, 0x00, 0x00, 0x19, 0xe0, 0xff, 0xff, 0xff, 0x09, 0x00, 0x00, 0x00,
  0x04, 0x00, 0x00, 0x00, 0x00, 0x00, 0x00, 0x09, 0xf0, 0xff, 0xff, 0xff,
  0x28, 0x00, 0x00, 0x00, 0x02, 0x00, 0x00, 0x00, 0x00, 0x00, 0x00, 0x28,
  0x0c, 0x00, 0x10, 0x00, 0x0f, 0x00, 0x00, 0x00, 0x08, 0x00, 0x04, 0x00,
  0x0c, 0x00, 0x00, 0x00, 0x03, 0x00, 0x00, 0x00, 0x03, 0x00, 0x00, 0x00,
  0x00, 0x00, 0x00, 0x03,
};
const unsigned int mnist_cnn_int8_model_len = 5272;